0001111100111100001100110010100011111100
0100001100111111001100100001010000001110
0010111100101101001110000001000100000110
0000010100100000000010110001101100011001
1111001000010100111100011110110011111101
1111010011101011110111110000100000001010
0000100011101100110111000000000011101100
0000011000010010000101111111010000010000
0000111100011001000001101111100000010000
0000011100100011001010011111100000000010
0001000000011110000101001110100111110111
0001110100000010111101011110110011111111
0001001000001001111010100000000011100010
0001110000100101111011001111011011100011
0001110100010111000001101111011100001100
0001110100010100000001001110011111101011
0000101000101010000000111110101111100111
0010110000100101111101011111000111101000
0001001000011101111011011111011011111000
0001001000001010111100011111000111111011
0010110100100110111100110001001000011100
0001011111111111111101000001010100011001
1111110000010010111011010001111000011101
0000110111110011000000011110011111110111
0000010000010100111000111110111011111100
0001101100011111010011010100100100111001
0011111000111100010110000110001101000100
0000111100110011001111010010000100010010
1111100100000101000010101111000000011001
1101111111010111111111111110011011101101
