1111001000000001000010010000011100000100
0000100000010000000010001111010011110000
0000010000010100000010011111100111110111
0000001000001011000001010000011011111000
0000100111111110000011000000110111111000
0000100011110010000001010000110100001010
0000001111101110111111001110111100001000
1111011111110011111110110001000000001111
0000001000010000111111100001010011110011
0000100100001111000000001111011111111111
0000011000000111000000110001001000000101
1111010011110101000001000000011100010010
1111101011101101111111011111000011111100
0000110011111010111110111111100100000101
1111101011110110111110101111111111111110
1111011011111111111100101111110100000111
0000000000000011000010101111001111110111
1111101111101111111110010000001111110011
1111101000001110000011101111110111110110
0001000011111110000100001111110100010000
1111111100000101111111001111001000000000
1111110111101111111001101110110111110001
0000111100010001000001000000010111111101
0000100000000101000111110000011100001111
1110100011110101111011111111001111110000
1111010000010000000010110000011111110010
0000000000010100000110100000100100011100
0000001000001101000001000000100000001100
1111010011111101111001111110010111100101
1111101000000000111100001111001111110100
0000101000000000000000100000001111111110
1111111011111111111100101111011111110110
0000110000001110000010110000100100001001
0000000100000111000100010000000100010001
1111011111111001111100101110111111110000
0000001100001111000101110000010011110101
1111011100000111000100010000110011111111
0000001100010001000010110001001111111001
1111011111110101000010010000100000001000
0000011111110011000001111111010011111011
0000000111111100000010011111001111111010
1111100011111001000001110000101011111000
0000000111111000111110010000000000000100
1111000011110010000011001111111000001101
1111110100000101111110111111111111111111
0000010000001000111100011111000100000000
1111001111111101000010011111111000000100
0000011111111111111111000000000111110111
1111101100001001000000011111011111111000
0000101111110101000010100000001011110100
0000011100001001000001000000011111111011
0000110100000100111111110000010000000110
1111100011110110111101011111010100000101
0000001111110010000010000000000000000100
0000000011110101000000100000110011110010
1111001111111011000010011111100011111110
1111000111111010111111010000010100001010
1111111100001000000010101111100000001001
0001000011111111000010110000001100000000
1111100000000111000000111111110100000011
0000000000000001111111001111110100000011
1111111000000000000011100001000111111110
1111110100000111000101010000110111110111
1111010111110100111111000000001011111010
0000101000001110111110010000100000000010
0000101000001010000000101111111000001011
0000101100000100000000010000000000000011
1111010011111011000000110000100111110010
0000000011111101111111010000000000001101
1111111100000001000101011111101111111011
0000111011111100111100110000100000000001
0000010111111111111111000000100100000000
0000011111111101111110111111110000001000
0000001100000101111101011111010011110011
0000011111110110000010111111001111111011
0000101011111111111110010000010111111001
1111110011111101000001011111111111111000
1111110100000011000011000000001100001101
1111010000000010000001101111011100001000
0000100100000001000010101111001000000000
1111010111111110111111111111100111111001
0000011000001101111101111111100111110001
1111111111110101000011111111110111111111
0000011011111011000011001111011011110111
0000100011111011111101100000101011111010
0000100111111110000001111111100111110011
0000011111110011000010011111011000000100
0000100011110010111110100000001111110011
0000111011110100000000011111100100000100
0000010100001011000000111111111111111111
0000100111110110111101110000010000001001
0000010000000000111101000000000000000110
0000010000001000111111111111101011110100
1111100100001010111110111111111100000101
0000011000001001111101101111101100000111
1111011100000001111111110000001000000110
0000001011111010000000101111110000000000
1111101111111101111110011111100000000001
1111111000000110000010110000100111110011
0000001100000001000001001111111100000100
1111000111111101000000101111111111111001
0000001111111100111101101111100111111100
1111110100000111111101100000011000001011
1111000100000101000010001111010111111110
1111110111111010111111001111000011110011
1111100000000111111110011111110100001110
1111000111111110111101011111111011111110
0000100000001100000000010000100011110010
0000001011110111000010010000000000000000
0000000111110101111111110000100000000011
0000101100000100111111000000010111110111
0000101011111110111111001111010000000001
0000010100001000111111111111001000001001
0000011011110101111110110000010100000100
0000110100000100111011111111010111111111
1111000100000011000010100001000111111011
0000101000001001000100000000111100000101
0000011000000111000011110000001011111010
1111100011111010000011100000010000000001
0000101011111001111101110000011100001100
1111001000001000111110101111011000000010
1111011100001011111101001111100100000011
0000010000001000000010101111011100000110
0000110111110111111111100000011000000100
1111110000000110111110100000011011110111
0000110011110100111101101111001111111111
1111010011111101111100100000010100001011
1111110011111101000011000000101111110110
1111010000000000111101010000000000001010
0000100111111001000001101111010000000011
1111011111111000000001110000000011110101
0000100111111010111101101111111100000100
0000110000001011111100101111100100001110
0000011000001110000000011111100000001010
1111111111111101000010000001001000001110
0000100000001010111111001111001100000110
0000101011110110000001011111010000000101
1111110000001010111101101111010111111100
0000011100000110000000001111011000000110
0000011100001101111101010000001011111111
1111000100000110111111101110101111111110
0000000000000100111111011110110111101111
0000010011111000111011110000011011111100
0000010100000110111111011111111011111100
1110110111101010111111101111100011110010
1111001111111101111111000000000100000011
0000010111111011000001101111101000000010
0000101000000100000000001111011011111101
0000010011110110111100111110111111110010
0000010011111010111110001111001100000001
0000110111111100000001111111000111111101
1111110000000010111101010000011100000101
0000101100001100000010001111011000000010
1111001000000001111111110000000000001010
1111110111110001000000011110111011111011
1111100000001011000100100000110011110111
0000101000000001000010010001000100000101
1111101111111000000000000001000000000001
1111110000001010111101110000010111111111
1111001100000110111101100000100000001001
1111100000001001111111001111100011110100
1111111011111011000010011111011011111011
0000101111111100000000000000000100000101
1111110000001111111111011111110100000010
0000101100001100000000111111110111111001
1111101111110100000001110000101000001000
1111100100000000111110011111111011110110
1111011111110011111101111111010100001010
1111110000001000000011100000001100000010
1111100111110111000011100000101011110011
0000011000010000000011010000100111111011
0000001011111000111101110000101111111110
0000000100000100111101101111101011111111
0000110111111111111101101111001011111010
1111111011111010000001111111111000000111
1111110100000011000001001111011100001001
1111010111111110000000000000010000000000
1111011011110010000001011111111111111111
0000001111111111111111000000010000001010
0000000011111110111111010000111011110101
0000100111111101000001001111101100000011
0000001000000000111110100000001011111010
0000010100000101000000011111101100001001
0001000000010010000101100000101111111000
1111100100000100000010001111101100001001
0000000011111101000010001111011000001011
0000110000010001000101010000000100001110
1111011100001111111110100000100100001011
1111001100000101000000011110110011111001
0000000111101011111100110000001111111100
0000111011111100000000100000100011110101
1111100000000110000001101111010000000100
1111111100000011111111100000000000000011
0000010100000101000000010000111000001111
0000000000000000111110010000000011110100
0000100000001010000010100000100100001110
0000000000000111000100010000101100000011
1111100100001001000010101111111100000101
0000101111111010000011100000011100001000
0000001100001011000000010000100111111111
1111100011111110000001010000100000000010
0001000100000011111110100000100111111000
0001010111111000000000101110101111111011
0000010100001000000001000000010011111111
1111000000000000000000001111110011111100
1111110000000110111110011111110111110110
1111010011110100111010011110111000000001
0000001111110110000100011111111100000111
1111000100000011000011010001001111111000
1111111000001000000001011111001011111001
0000110000011000000101010001000000001011
1111000111111001111111000001101000010111
1111101111101000111001000000000100000000
1111100111101100111111100000101000010011
0000001011110000000010000001010011111100
0000101000000001000000011111110111110001
1111110011111010000010101111110011111111
1110111111111111111110001111111111110111
0000101011111000000000011111011011111111
0000110100010101000001110000010100000111
1111110100001000000010100000100011111110
0000000011100011110111111111001111111001
1111101100001100000101110001100000011001
0001111000101100001010000001101000000001
1110101111110000111011110000010000000011
1111100100001010000000101111110000000011
0000100100010100001001010001110100101001
0001100000011000000011000001011000011110
0000000011110100110110011101110011110101
1111100111101001111010011111110111111001
1111101011110110000000110000100111110110
1111001111110110111111101110100111111011
1111111000010000000010010001010000001000
0001000000010111000001100000010000010011
1110101111101000111110000000010111101101
0000111000001000000100001111110100000110
0000000100011001000100101111110011111001
1111100100000001000010110000010000001010
0000101111110001000000110000001111111010
1111010111101111111110001111101111110110
1111100011100111111101110000001000010011
0001001000000101111011010000011011110010
0000000000000100000010011110110111111010
1111101000001001000010110000100011111110
0000011100000101000000110001000100000011
0000000100001110111111010000011000000011
0000101111110111000011110000000111111010
1111110011111101000100111111110111101011
1111011000010011000100010000011100000000
1111100111111010000100010000010000010000
1111101011111110000010110000011000001110
0000010000000001111110110001010100000100
0000100011111010111101010000000000010000
0000011011100101000000000001100000000010
0000011111111110000001110001000000001100
1111111111111001111101001111011011111110
0000101111111110000010100001000011111010
0000101111110111000001100001110000010000
1111010011111000000001111110111111110000
1111110111110100111101111111010100001000
1111100111110010111110111111110000001000
1111100000000100111111100000101000001001
0000101100010000000010110000111100000110
1111100011111111111111001111111011110000
1110010011100100111011011111111100000001
1111111111111011000100010001001100001100
1111101011110100000101100001111100000010
1110011100000111000100110001101000000001
1110111000001000000011000000000111110100
1111100000010001000010101110111011111111
0001001000000111000000000000101011111001
0000110000010011000010100000010111110101
0000111100001111111110111111111111111000
0000011111111110111101100000101000000110
0000000000001001000010111111010011111000
0000100100000000000000100000001111110111
1111000100000100111111010000001111110010
1111010111111000111110010000010111101101
1111010111110101111110100000100111111100
1111110100001010000000110001001000010110
0000011111111000000010111111110100000001
0000101111111110000100001111100000000100
1111010111111101111111000001001000001000
1111111011111101000000010000101000000011
0000000011111100000001001111101000000101
0000101011111100000010110000111100000010
0000001011110111000011010000001011110100
0000000011110011111111110000011100001000
0000010000001000111101010000110100000100
1111011111111000000000101111110111110100
1111101100001101000100100000111000010001
0000010100000110000011001111111000001000
0000101000001100000001001111110011110110
0000100100001111000010000000100000000010
0000000011111111000000001111100111111011
0000001111111001000001100000001000001000
1111010000000101111110010000110000000010
1111110011111101111100010000011100000110
1111100011111010000011000000001100001101
1111110000001111000011010000111000001110
0000111000000111111100101111010000001011
1111110100000011000000100000010100000010
1111111111111011000001111111000011110000
1111111000000000111111101111100011110001
0000000100010010000011000000101000001110
1111110000000111111110100000101011110000
0000001100000111000000101111010011110100
0000011011111101111111011111000111111101
0000100000000100111111001111110100000101
1111100011101110111110101111111100001001
0000010000000100000011010000101100001101
1111100111110010111110110000010000001000
0000000100000001000011000000101100000110
0000010000000110000010110000101100000101
1111001111110101111100001111011011111001
1111010011110110111110100000010011111101
0000010100001010000001011111111011111011
0000000111111001000000011111100011111111
1111011111111101000100000000011000001101
0000011000000011000000011111011111111001
0001001000000001000000111111001111111111
1111110011111010000001000000110011110100
1111010111110100111111110000010111110010
0000011111110110000000011111101111111000
1111101111111110000010100000000100001001
0000100011110101000001000000111111111101
0000010111110100000000100000010000001010
1111010111111101000100010000001011111011
1111011111111000000100101111111011110010
1111001100001010000010001111110000000100
0000001100000001111110010000111000000001
1111000011111111000010000000111000010010
1111100011111111111100100001000100001010
0000101111111111111101010001011000000110
1111010111111110111110010000101000001000
0000011100000110111111001111110011111001
1111110000000110111110010000010100000100
1111100000000000000011011111010011111001
0000111000001010000010001111100100000101
0000110111111101000011000000011100000100
0000110000001101000010001111100111111100
0001000000000001000001001111011000000011
0000001100000010111100011111011111111110
0000101011111100111101101111010100000101
1111001000001000000010111111010011111011
1111010011110000000010110001100000010001
0000000000000011111111110000111000001111
1111001011110100111110100000100011111000
1110111111110111111110100000010111111111
1111001111111100000010001111110111110010
1111111011111100000001100000101100000110
0000110100001000000001000000111111110111
0000101100000100111111000000011011110011
0000101000000110111110110000011111110101
1111100100000101000000100000101011110010
1111101000000100000011011111101011111100
0000111000000001000010011111110111111011
0000000100000001111111110000100000001000
0000001100001011111110001111110011110011
0000000000001000111110101111110011110101
1111001100000111111100110000000011111111
1111101111111110000001101111000100000110
1111111111110101111110011111000111110000
1111110111110001000010100000010100000000
1111011011110110000000010000101100001101
0000101011110110000100110000100011110111
0000010111110111111111110000100000000011
1111010000000100000011100000010011110100
1111011000000000111111101111011000001000
1111110011110100000011011111000100001000
1111011111110101111100111111011011111110
1111000100001001000011010000111100001011
0000011011111111000001100001011000010010
0000010011111111000000100000001100010001
0000001000001000111110100001001011111101
1111110011111110000000110000011011111000
1111010011111010000000000000110000001000
1111100111111101111101001111110000000001
0000101111110001111101010000011011101101
0000011000001011000001100000010000000010
1111100000001001111100110000100111111010
1111100000001000111111111111101000000010
0000010111111111000010110000110100000101
1110111111110001111101100000010011110010
1110111111110011111100001111010100000101
0000000011111011000011010001110100010100
0000101100000100000010110001011111111000
0000001111111010000000110001011000000001
0000011100000101000011111111011000000011
1111111000001111111110100000100111111010
1111111000000110111110110000010100001110
1111101111110110111100110000000100000101
0000100000010000000010110000010100001000
0000001011111100000001100000100011111111
0000100100001100000001010000111000001000
1111100100000011111101110000000000000000
0000111111110110000000110000100111110000
0000101000001100000000101111100000000100
1111110111110111000000111111111000000001
0000001111111010111110010000101011111001
1111101000000101000010001111110111111010
1111101100001100111100011111100100000110
0001000000000100000001011111100011110011
1111011100001000000010011111010100000001
0000001111110111111111010000111111111101
0000011000000110000000000000010100000100
1111100111111111111111100000001011111011
1111010111111000111111001111011111110111
1111111100001111000011110000110111110110
1111100011111111000001010001001011111010
1111111000001110000000101111111000001110
1111011000001100000100001111111000001111
0000000100001111000011010000110100000001
1111001000000110111110001111111000010010
0000001011111110111101110000000000010000
1111011100000111000000010000100100001000
0000000111111100111110001111101111111010
0000001011111101000001100000100011111110
1111101100001101111101100000010100000110
1111100111111101111011110000001100001010
1111111111110111111110010000011011110010
0000101000000000000000011111111011111110
1111110100001100000011110000000111111001
1111111011111011000001110000000100000111
1110111111111100000000001110110111110010
0000001011111011000010100000010111111011
1111110011110000000001110000000111111101
0000011111110111111110110001000011111111
1111100100001010000001011111110111110110
1111001100000100000001000000011011111001
1111001100000001111101111111111100000000
0000010000001010000001100000111011111010
1111110100001000000001000000010011110101
1111011100001110000011001111101000000101
1111110100000101111101110000101000000110
0000100011111100000011000000110111111111
0000110000000110000010110000001011111001
1111111000001101111111001111101111111011
0000001011111001000001010000111100001001
0000010000001111000000011111101100010000
1111000011110100000001010001000100011101
0000101111111110111110011111101111110111
0001100000001011111011101111100011110011
0000000100000100111111101111111100000100
0000011000000010000010000000110111110011
1111101011111101111101101110111100000001
1111010100000011111111111111011100000001
1111111100000001000011111111001111110010
1111110100001100000000010000101000000010
0000111111111110000101100001010100010100
0000010011111010000000110000100011110111
0001001100000011000101000000010111111110
0000111111111111000001000001001111111011
1110111111100010000011110001101011110101
1111100011111111000110001111111100000000
1111010100000101111100111111001111110110
0000100100001101000001011111101011110011
0000001100001011000110110010001100010011
1110101111110110000000010000100011111110
1111101111110011111010111111010000001011
0000111100001000000001011111111111110010
1111101111111001111111111111110111111001
0001101000011001000110110001110000010000
0000001100001101111111100000100111110101
1110011111110011111100101110101000000010
1110100011101100000010010001101000001000
1101100111110100000110011111011111100111
1110011000001100000011001111101011111101
0000100100000111000110000000011000000111
0000000000000101111101101110101011100100
0001010100000101000010010000011100001011
0001110000010101000011101111110011110100
0000010000000111111101101110100111111111
1111010000001101111101011111100111111011
1111001011111101000000101111100000001001
0000110100000000000000110000011111110010
1111110000000101000010110000000011110011
1110111100000001111111001111101111110111
1111010011110110111101101111111000001111
0000101000011001000100000001011000011000
